{"0":15,"1":16,"2":17,"3":18,"4":19,"5":20,"6":21,"7":22,"8":23,"9":24,"!":0,"\"":1,"#":2,"$":3,"%":4,"&":5,"'":6,"(":7,")":8,"*":9,"+":10,",":11,"-":12,".":13,"/":14,":":25,";":26,"<":27,"=":28,">":29,"?":30,"@":31,"A":32,"B":33,"C":34,"D":35,"E":36,"F":37,"G":38,"H":39,"I":40,"J":41,"K":42,"L":43,"M":44,"N":45,"O":46,"P":47,"Q":48,"R":49,"S":50,"T":51,"U":52,"V":53,"W":54,"X":55,"Y":56,"Z":57,"[":58,"\\":59,"]":60,"^":61,"_":62,"`":63,"a":64,"b":65,"c":66,"d":67,"e":68,"f":69,"g":70,"h":71,"i":72,"j":73,"k":74,"l":75,"m":76,"n":77,"o":78,"p":79,"q":80,"r":81,"s":82,"t":83,"u":84,"v":85,"w":86,"x":87,"y":88,"z":89,"{":90,"|":91,"}":92,"~":93,"Ċ":94,"Ġ":95,"ĠĠ":96,"Ġt":97,"Ġa":98,"in":99,"he":100,"re":101,"on":102,"Ġthe":103,"Ġs":104,"er":105,"at":106,"Ġc":107,"ĠĠĠĠ":108,"en":109,"Ġo":110,"Ġ\"":111,"nd":112,"es":113,"ing":114,"ĠĠĠ":115,"it":116,"Ġp":117,"or":118,"ou":119,"Ġand":120,"Ġw":121,"is":122,"Ġf":123,"an":124,"ion":125,"al":126,"Ġb":127,"Ġto":128,"Ġm":129,"Ġin":130,"Ġof":131,"le":132,"ct":133,"ar":134,"ut":135,"Ġd":136,"st":137,"ed":138,"ĠĠĠĠĠĠĠ":139,"ic":140,"\":":141,",Ċ":142,"ro":143,"ent":144,"\\n":145,"Ġe":146,"put":147,"om":148,"Ġre":149,"as":150,"ve":151,"Ġh":152,"Ġth":153,"\",Ċ":154,"Ġl":155,"Ġis":156,"et":157,"ce":158,"Ġn":159,".\\":160,"im":161,"il":162,"Ġg":163,"Ġu":164,"ction":165,"ru":166,"ation":167,"ol":168,"ch":169,"ĠT":170,"Ġfor":171,"out":172,"ra":173,"ow":174,"id":175,"ly":176,"Ġst":177,"Ġbe":178,"Ġy":179,"Ġpro":180,"ig":181,"se":182,"ate":183,"Ġthat":184,"ith":185,"ir":186,"ur":187,"ot":188,"Ġor":189,"Ġon":190,"Ġyou":191,"ers":192,"stru":193,"Ġan":194,"if":195,"ul":196,"struction":197,"Ġ{":198,"Ġ}":199,"Ġcan":200,"input":201,"output":202,"instruction":203,"Ġ{Ċ":204,"Ġ},Ċ":205,"\"Ċ":206,"Ġhe":207,"Ġcon":208,"Ġit":209,"ay":210,"ess":211,"Ġwith":212,"ver":213,"el":214,"Ġas":215,"am":216,"ĠA":217,"ge":218,"Ġsu":219,"iv":220,".\",Ċ":221,"Ġcom":222,"ĠI":223,"ment":224,"ak":225,"Ġal":226,"\\\"":227,".\"Ċ":228,"ive":229,"Ġare":230,"ab":231,"ad":232,"Ġmo":233,"Ġex":234,"Ġv":235,"ĠS":236,"res":237,"pp":238,"qu":239,"Ġde":240,"Ġwh":241,"ity":242,"Ġen":243,"ĠThe":244,"her":245,"ld":246,"ri":247,"ter":248,"ant":249,"ĠC":250,"ist":251,"Ġ\"\",Ċ":252,"um":253,"Ġus":254,"Ġne":255,"ain":256,"th":257,"ect":258,"Ġle":259,"op":260,"em":261,"ies":262,"Ġch":263,"Ġim":264,"du":265,"od":266,"ort":267,"nt":268,"est":269,"igh":270,"ere":271,"Ġha":272,"us":273,"ure":274,"ial":275,"oc":276,"Ġwor":277,"Ġtheir":278,"ac":279,"ence":280,"iz":281,"Ġyour":282,"os":283,"Ġimp":284,"ud":285,"Ġby":286,"Ġse":287,"ine":288,"ould":289,"low":290,"ill":291,"age":292,"rom":293,"Ġsp":294,"ĠP":295,"Ġsh":296,"ust":297,"The":298,"un":299,"'s":300,"Ġinc":301,"ide":302,"pl":303,"ight":304,"og":305,"Ġpl":306,"pt":307,"are":308,"Ġte":309,"Ġint":310,"Ġ\\":311,"his":312,"Ġr":313,"ake":314,"per":315,"orm":316,"ag":317,"ff":318,"ĠE":319,"art":320,"Ġk":321,"end":322,"ĠM":323,"Ġwe":324,"ĠB":325,"Ġad":326,"cess":327,"rou":328,"ical":329,"all":330,"able":331,"Ġfrom":332,"and":333,"ĠH":334,"Ġab":335,"act":336,"Ġcomp":337,"ome":338,"ach":339,"ĠThis":340,"Ġhave":341,"form":342,"Ġ\\\"":343,"ast":344,"Ġat":345,"ĠW":346,"Ġres":347,"Ġdat":348,":\\":349,"ther":350,"ions":351,"ore":352,"Ġ(":353,"Ġcont":354,"our":355,"ep":356,"ĠF":357,"Ġac":358,"ance":359,"ĠR":360,"gh":361,"Ġme":362,"ces":363,"Ġwas":364,"ind":365,"vel":366,"ations":367,"Ġhel":368,"Ġmore":369,"ult":370,"ĠD":371,"reat":372,"ign":373,"Ġhelp":374,"ime":375,"ard":376,"Ġcl":377,"Ġapp":378,"ans":379,"ie":380,"Ġdata":381,"ich":382,"ang":383,"ous":384,"ell":385,"ks":386,"ase":387,"ice":388,"ip":389,"ite":390,"Ġsuch":391,"Ġfe":392,"Ġwhe":393,"ib":394,"Ġother":395,"Ġthis":396,"ass":397,"ual":398,"ile":399,"ne":400,"red":401,"Ġhas":402,"oo":403,"ress":404,"ific":405,"ning":406,"Ġ=":407,"Ġup":408,"Ġman":409,"Ġar":410,"ong":411,"ec":412,"Ġtra":413,"av":414,"Ġwhich":415,"Ġgo":416,"Ġprov":417,"Ġdis":418,"**":419,"so":420,"ĠG":421,"one":422,"Ġem":423,"Ġnot":424,"ue":425,"ĠO":426,"Ġj":427,"ace":428,"Ġthey":429,"ame":430,"Ġqu":431,"ĠL":432,"iff":433,"Ġfol":434,"ary":435,"ated":436,"ustom":437,"ition":438,"Ġits":439,"Ġsy":440,"ke":441,"ack":442,"ry":443,"--":444,"Ġtime":445,"Ġdes":446,"Ġnew":447,"ents":448,"ount":449,"Ġfollow":450,"Ġalso":451,"Ġcomm":452,"Ġout":453,"Ġeff":454,"Ġdiff":455,"iven":456,"ap":457,"Ġsent":458,"\\u":459,"Ġso":460,"Ġprodu":461,"Ġuse":462,"Ġsc":463,"Ġ-":464,"Ġun":465,"lud":466,"ĠIt":467,"ener":468,"king":469,"Ġev":470,"Ġabout":471,"Ġthem":472,"ĠU":473,"Ġcustom":474,"Ġro":475,"Ġinclud":476,"les":477,"etw":478,"stem":479,"xt":480,"Ġinto":481,"Ġper":482,"ĠIn":483,"ĠN":484,"Ġwill":485,"Ġlear":486,"ber":487,"Ġall":488,"Ġpe":489,"ds":490,"Ġtw":491,"aking":492,"ark":493,"ful":494,"Ġmake":495,"chn":496,"erv":497,"ost":498,"rough":499,"Ġone":500,"Ġinter":501,"ities":502,"ail":503,"ike":504,"ree":505,"ple":506,"alth":507,"Ġused":508,"ors":509,"Ġover":510,"ility":511,"ments":512,"ange":513,"Ġway":514,"ory":515,"Ġcol":516,"Ġpr":517,"Ġcould":518,"Ġnum":519,"reate":520,"int":521,"Ġredu":522,"erson":523,"Ġrec":524,"Ġher":525,"Ġneed":526,"ms":527,"ater":528,"oy":529,"Ġsystem":530,"Ġinform":531,"Ġtwo":532,"Ġtechn":533,"Ġsentence":534,"ience":535,"ize":536,"get":537,"Ġdiffere":538,"ood":539,"rib":540,"Ġbut":541,"Ġfollowing":542,"ased":543,"olog":544,"erg":545,"led":546,"ures":547,"In":548,"ear":549,"Ġph":550,"own":551,"Ġpre":552,"Ġwould":553,"Ġusing":554,"Ġcons":555,"Ġwork":556,"Ġmod":557,"ating":558,"ia":559,"ire":560,"Ġpos":561,"ient":562,"ob":563,"ject":564,"Ġinv":565,"ons":566,"Ġdo":567,"ular":568,"Ġdec":569,"Ġhealth":570,"Ġimpro":571,"Ġany":572,"Ġthrough":573,"yp":574,"row":575,"velop":576,"Ġprocess":577,"Ġtr":578,"lic":579,"very":580,"als":581,"ify":582,"``":583,"ari":584,"Ġstr":585,"Ġimport":586,"Ġlike":587,"Ġproduct":588,"Ġsome":589,"ph":590,"ential":591,"Ġam":592,"ates":593,"Ġacc":594,"ens":595,"ns":596,"Ġsm":597,"Ġind":598,"een":599,"Ġexper":600,"lect":601,"Ġval":602,"Ġrel":603,"its":604,"Ġinformation":605,"ings":606,"ĠJ":607,"ople":608,"iness":609,"Ġgiven":610,"mm":611,"ices":612,"Ġpart":613,"ild":614,"ys":615,"Ġour":616,"nder":617,"Ġperson":618,"ally":619,"Ġke":620,"etween":621,"ft":622,"oth":623,"Ġspec":624,"Ġbetween":625,"ergy":626,"ĠAI":627,"Ġwho":628,"Ġmay":629,"ef":630,"ative":631,"ise":632,"Ġlist":633,"Ġkn":634,"Ġadd":635,",\\":636,"ord":637,"ics":638,"Ġpeople":639,"ĠSt":640,"Ġhis":641,"Ġexp":642,"ible":643,"Ġthere":644,"Ġserv":645,"Ġincre":646,"Ġdevelop":647,"ound":648,"ower":649,"Ġtrans":650,"bs":651,"Ġenergy":652,"Ġoff":653,"Ġbus":654,"Ġwhile":655,"ose":656,"Ġact":657,"Ġexam":658,"Ġlearning":659,"ctions":660,"con":661,"gor":662,"gan":663,"ution":664,"round":665,"pport":666,"Ġhow":667,"Ġbl":668,"Ġmed":669,"anc":670,"Ġtyp":671,"Ġra":672,"Ġcar":673,"ife":674,"Ġworld":675,"Ġvari":676,"Ġrep":677,"au":678,"Ġsoc":679,"Ġprovid":680,"Ġset":681,"ten":682,"Ġsol":683,"Ġeach":684,"Ġwhen":685,"Ġeffect":686,"Ġpo":687,"Ġshe":688,"ick":689,"Ġwhere":690,"Ġmodel":691,"Ġimportant":692,"Ġunder":693,"Ġprog":694,"enerate":695,"ural":696,"tain":697,"Ġass":698,"ology":699,"Ġhad":700,"ook":701,"gg":702,"Ġcustomer":703,"ting":704,"ving":705,"Ġresp":706,"line":707,"Ġcreat":708,"ll":709,"ily":710,"Ġreg":711,"Ġdet":712,"Ġif":713,"Ġ+":714,"Ġbusiness":715,"\\nIn":716,"ish":717,"Ġmost":718,"ĠĠĠĠĠĠĠĠ":719,"hes":720,"angu":721,"Ġprovide":722,"Ġadv":723,"erm":724,"ub":725,"Ġsk":726,"irst":727,"any":728,"Ġday":729,"ivid":730,"arm":731,"ract":732,"nce":733,"Ġ|":734,"Ġimprove":735,")\\":736,"Ġco":737,"Ġcommun":738,"arket":739,"Ġmet":740,"cy":741,"Ġdifferent":742,"ized":743,"Ġart":744,"\\nThe":745,"rit":746,"Ġcomput":747,"Ġform":748,"ck":749,"Ġhum":750,"Ġchar":751,"ble":752,"Ġlead":753,"iron":754,"Ġrem":755,"Ġshould":756,"te":757,"Ġallow":758,"ness":759,"hat":760,"Ġfun":761,"Ġcomple":762,"Ġlangu":763,"ages":764,"Ġbec":765,"Ġsign":766,"ues":767,"ature":768,"Ġfind":769,"riend":770,"Ġstud":771,"Ġmain":772,"imate":773,"ove":774,"Ġresult":775,"Ġplay":776,"Ġreduce":777,"Ġeng":778,"ware":779,"redi":780,"Ġnumber":781,"Ġlar":782,"Ġpol":783,"Ġpat":784,"Ġwell":785,"ident":786,"viron":787,"rite":788,"crib":789,"Ġbu":790,"Ġhigh":791,"Ġthese":792,"ives":793,"ves":794,"Ġdesign":795,"urn":796,"Ġthan":797,"der":798,"Ġanal":799,"Ġwater":800,"Ġmarket":801,"Ġexample":802,"way":803,"stand":804,"ng":805,"ax":806,"itive":807,"Ġ`":808,"iqu":809,"Ġsim":810,"Ġequ":811,"gorith":812,"Ġtext":813,"resent":814,"Ġmany":815,"uring":816,"----":817,"\\nA":818,"Ġdi":819,"Ġsa":820,"vironment":821,"arch":822,"Ġatt":823,"Ġpot":824,"Ġtas":825,"Ġcreate":826,"ough":827,"Ġfl":828,"Ġmaking":829,"ious":830,"Ġgra":831,"Ġlife":832,"\\nO":833,"Ġalgorith":834,"ality":835,"eng":836,"Ġfin":837,"uc":838,"?\",Ċ":839,"ĠY":840,"Ġret":841,"Ġbeen":842,"Ġtechnology":843,"Ġprogra":844,"Ġhand":845,"hip":846,"wn":847,"Ġcal":848,"Ġwhat":849,"ividual":850,"iss":851,"ety":852,"Ġlanguage":853,"ources":854,"Ġclass":855,"Ġtake":856,"Ġeas":857,"ric":858,"Ġvis":859,"bject":860,"Ġref":861,"Ġenvironment":862,"Ġfirst":863,"eg":864,"Ġindividual":865,"Ġplan":866,"Ġperform":867,"Ġru":868,"ien":869,"Ġimpact":870,"Ġag":871,"ade":872,"Ġcle":873,"Ġrequ":874,"dition":875,"__":876,"Ġche":877,"ption":878,"Ġappro":879,"Ġ**":880,"Ġgreat":881,"ved":882,"Ġexpl":883,"Ġgrow":884,"Generate":885,"Ġmy":886,"Ġincluding":887,"Ġaccess":888,"Ġpop":889,"Ġmin":890,"fore":891,"Ġsocial":892,"ines":893,"Ġcharact":894,"Ġbr":895,"Ġstep":896,"Ġunderstand":897,"Ġorgan":898,"ĠAd":899,"Ġdisc":900,"Ġpower":901,"Ġlong":902,"hed":903,"Ġconc":904,"ward":905,"ited":906,"Ġele":907,"cing":908,"Ġevery":909,"Ġca":910,"Ġoften":911,"Ġuser":912,"vie":913,"ĠV":914,"Ġfood":915,"Ġinclude":916,"Ġloc":917,"ases":918,"ically":919,"ode":920,"ants":921,"Ġinvol":922,"Ġsmall":923,"Ġsur":924,"achine":925,"Ġbeing":926,"Ġpotential":927,"Ġno":928,"ĠCh":929,"Ġdep":930,"ather":931,"Ġboth":932,"Ġens":933,"Ġposs":934,"Ġed":935,"cribe":936,"ts":937,"ork":938,"ĠThey":939,"Ġpur":940,"ivity":941,"Ġwords":942,"Ġsignific":943,"Ġwere":944,"ĠHow":945,"Ġprom":946,"Ġexperience":947,"ĠK":948,"up":949,"Ġcount":950,"ered":951,"Des":952,"Ġfam":953,"```":954,"akes":955,"Ġgl":956,"ĠHe":957,"Ġfeel":958,"Ġback":959,"Ġfi":960,"Ġproble":961,"ization":962,"ling":963,"Ġcommunic":964,"ploy":965,"Ġaut":966,"Ġfriend":967,"Ġhuman":968,"Ġspe":969,"ew":970,"Ġpersonal":971,"Ġtop":972,"Ġent":973,"other":974,"Ġchang":975,"Ġcor":976,"Ġchange":977,"Ġdecis":978,"ability":979,"hing":980,"atural":981,"ever":982,"Ġcost":983,"Ġgood":984,"ause":985,"Ġident":986,"Ġsoft":987,"ined":988,"Ġpass":989,"'t":990,"atures":991,"Ġben":992,"Ġcompany":993,"Ġstart":994,"Ġsignificant":995,"Ġsumm":996,"ond":997,"old":998,"bers":999,"sel":1000,"?\\":1001,"Ġcur":1002,"Ġlight":1003,"Ġcommon":1004,".\\\"":1005,"Ġcustomers":1006,"iving":1007,"conom":1008,"Ġfunction":1009,"Ġve":1010,"Ġthree":1011,"Ġeven":1012,"ining":1013,"Ġgener":1014,"ries":1015,"Ġlevel":1016,"Ġspecific":1017,"Ġwebs":1018,"Ġthen":1019,"Ġeffective":1020,"cur":1021,"ense":1022,"Ġlarge":1023,"Ġdist":1024,"Ġeffic":1025,"Ġsupport":1026,"Ġget":1027,"Create":1028,"read":1029,"port":1030,"Ġinf":1031,"Ġ'":1032,"Ġyear":1033,"Ġstate":1034,"Ġkey":1035,"ccess":1036,":**":1037,"Ġav":1038,"Ġknow":1039,"Ġbenef":1040,"Ġess":1041,"ables":1042,"ren":1043,"Ġown":1044,"ĠThese":1045,"ock":1046,"-t":1047,"Ġide":1048,"omm":1049,"reen":1050,"ced":1051,"cture":1052,"Ġteam":1053,"Ġris":1054,"Ġtasks":1055,"Ġdown":1056,"Ġstru":1057,"Ġcomputer":1058,"-b":1059,"Ġfact":1060,"Ġmem":1061,"etter":1062,"\\nS":1063,"Ġaround":1064,"Ġword":1065,"Ġbased":1066,"Ġbeh":1067,"Ġright":1068,"Ġdel":1069,"Ġpoint":1070,"Ġnatural":1071,"ss":1072,"Ġeconom":1073,"Ġmade":1074,"Ġins":1075,"Ġinst":1076,"Ġmat":1077,"Ġvalue":1078,"Ġanim":1079,"Ġsever":1080,"\\nT":1081,"ational":1082,"ital":1083,"ze":1084,"ote":1085,"ills":1086,"tern":1087,"Ġread":1088,"Ġcontent":1089,"Ġonline":1090,"Ġend":1091,"ĠUn":1092,"vent":1093,"Ġsee":1094,"ending":1095,"Ġmon":1096,"Ġdr":1097,"Ġkeep":1098,"Ġsystems":1099,"cul":1100,"ven":1101,"Ġstory":1102,"Ġmedia":1103,"Ġseveral":1104,"hen":1105,"ateg":1106,"Ġcontin":1107,"Ġdev":1108,"Ġlearn":1109,"Ġla":1110,"Ġstre":1111,"Ġpartic":1112,"Ġair":1113,"ually":1114,"Ġsuccess":1115,"ouse":1116,"Ġiss":1117,"ied":1118,"Ġmachine":1119,"Ġopt":1120,"Ġx":1121,"Ġop":1122,"Ġprof":1123,"ocus":1124,"chie":1125,"Ġmeth":1126,"ner":1127,"omp":1128,"ron":1129,"Ġhome":1130,"Ġbetter":1131,"ĠPro":1132,"Ġmult":1133,"omet":1134,"Ġincrease":1135,"Ġanaly":1136,"vert":1137,"Ġrele":1138,"Ġbra":1139,"ink":1140,"Ġtem":1141,"Ġpredi":1142,"Ġtre":1143,"Ġservice":1144,"Ġwebsite":1145,"Ġmanage":1146,"Ġsoftware":1147,"here":1148,"Ġprot":1149,"-s":1150,"Ġquest":1151,"ier":1152,"Ġknown":1153,"Ġorder":1154,"Ġphys":1155,"cept":1156,"Ġachie":1157,"Ġinput":1158,"Ġpossible":1159,"ĠIf":1160,"Ġext":1161,"fter":1162,"Ġelect":1163,"Ġmethod":1164,"Ġbre":1165,"ĠAn":1166,"ways":1167,"ering":1168,"ets":1169,"Ġjust":1170,"Ġstore":1171,"Ġdevelopment":1172,"Ġcare":1173,"Ġobject":1174,"Ġtype":1175,"ĠFor":1176,"Ġfocus":1177,"ggest":1178,"Ġonly":1179,"Ġconsid":1180,"ars":1181,"Ġchall":1182,"Ġdeterm":1183,"Ġsal":1184,"ins":1185,"Ġfeatures":1186,"Ġtru":1187,"ody":1188,"Ġtool":1189,">\\":1190,"Ġensure":1191,"oss":1192,"ublic":1193,"Ġitem":1194,"Here":1195,"ination":1196,"Ġdef":1197,"Describe":1198,"ional":1199,"roup":1200,"Ġconf":1201,"Ġneeds":1202,"Ġcharacter":1203,"Ġvarious":1204,"Ġlet":1205,"Ġapplic":1206,"aut":1207,"Ġjob":1208,"ellig":1209,"ĠCon":1210,"Ġbest":1211,"Ġfore":1212,"Ġamount":1213,"rop":1214,"Ġbuild":1215,"ique":1216,"aging":1217,"Ġemploy":1218,"Ġrest":1219,"air":1220,"What":1221,"Ġtoget":1222,"Ġways":1223,"Ġidentify":1224,"Ġtogether":1225,"Ġreal":1226,"Ġusers":1227,"Ġmean":1228,"asing":1229,"ĠAm":1230,"Ġeduc":1231,"Ġalgorithm":1232,"Ġnetw":1233,"Ġcode":1234,"Write":1235,"ov":1236,"-d":1237,"oura":1238,"ĠHowever":1239,"uture":1240,"view":1241,"Ġindu":1242,"Ġproducts":1243,"ected":1244,"ertain":1245,";\\":1246,"ĠAs":1247,"pr":1248,"aste":1249,"Ġoper":1250,"Ġ$":1251,"avi":1252,"self":1253,"Ġ<":1254,"Ġindust":1255,"Ġgu":1256,"Ġothers":1257,"Ex":1258,"ian":1259,"Ġ\"\\\"":1260,"-f":1261,"nces":1262,"Ġfil":1263,"Ġrespons":1264,"rol":1265,"Ġcap":1266,"Ġbefore":1267,"vern":1268,"Ġcomplex":1269,"lus":1270,"ribut":1271,"ats":1272,"Ġpositive":1273,"oh":1274,"Ġlo":1275,"Ġgroup":1276,"Ġfound":1277,"ee":1278,"ogn":1279,"Ġsw":1280,"Ġindividuals":1281,"Ġpract":1282,"Ġenc":1283,"Ġshare":1284,"raph":1285,"Ġrange":1286,"Ġsun":1287,"\\t":1288,"Ġproviding":1289,"icle":1290,"Ġdem":1291,"Ġplace":1292,"Ġaud":1293,"joy":1294,"Ġmust":1295,"els":1296,"ery":1297,"One":1298,"Ġfamily":1299,"Ġfuture":1300,"less":1301,"rent":1302,"Ġproblem":1303,"Ġessential":1304,"rodu":1305,"ired":1306,"Ġreducing":1307,"ism":1308,"Ġwarm":1309,"ray":1310,"Ġability":1311,"Ġstrong":1312,"Ġalways":1313,"Ġresources":1314,"Ġbenefits":1315,"Ġstrateg":1316,"Ġinvolves":1317,"Ġassist":1318,"erest":1319,"nA":1320,"ression":1321,"Ġ[":1322,"ilities":1323,"Ġsteps":1324,"verall":1325,"Ġshow":1326,"obal":1327,"\\nF":1328,"Ġland":1329,"ĠHere":1330,"Ġbusinesses":1331,"ĠEn":1332,"pportun":1333,"Ġmeas":1334,"Ġreturn":1335,"Ġdig":1336,"Ġhist":1337,"yth":1338,"Ġcent":1339,"Ġable":1340,"Ġwithout":1341,"yc":1342,"plain":1343,"Ġrelations":1344,"Ġservices":1345,"-c":1346,"Ġtest":1347,"arth":1348,"Ġcommunication":1349,"Ġintern":1350,"new":1351,"Ġsit":1352,"Ġinvest":1353,"Ġcaus":1354,"Ġunt":1355,"Ġfriends":1356,"Ġchanges":1357,"cri":1358,"dit":1359,"ĠBy":1360,"ĠYou":1361,"Ġmeans":1362,"Ġrese":1363,"ool":1364,"ted":1365,"elligence":1366,"ains":1367,"pping":1368,"Ġbel":1369,"Ġrepresent":1370,"Ġhapp":1371,"Ġser":1372,"Ġperformance":1373,"Ġopportun":1374,"Ġtemper":1375,"ĠShe":1376,"Ġfu":1377,"ix":1378,"bot":1379,"Ġwrit":1380,"Ġbehavi":1381,"Ġproject":1382,"ĠWith":1383,"ivers":1384,"day":1385,"Ġphysical":1386,"izing":1387,"Ġactiv":1388,"Ġwithin":1389,"Ġinterest":1390,"olution":1391,"wards":1392,"ffic":1393,"Ġquick":1394,"Ġpublic":1395,"Ġgrowth":1396,"Ġcho":1397,"Ġrelationship":1398,"Ġuntil":1399,"Ġhelps":1400,"Ġstudents":1401,"Ġfiel":1402,"imes":1403,"ulation":1404,"ibility":1405,"elf":1406,"Ġful":1407,"Ġsub":1408,"ank":1409,"ides":1410,"Ġskills":1411,"Ġclimate":1412,"Given":1413,"Ġpar":1414,"Ġclear":1415,"irt":1416,"Name":1417,"Ġpresent":1418,"Ġtri":1419,"Ġchalleng":1420,"ream":1421,"Ġlay":1422,"Ġmarketing":1423,"Ġsummary":1424,"Ġchild":1425,"Ġsaf":1426,"Ġsure":1427,"Ġsame":1428,"Ġmu":1429,"Ġemail":1430,"bon":1431,"Ġsomet":1432,"```\\":1433,"Ġcurrent":1434,"amp":1435,"ences":1436,"ĠRe":1437,"Ġtransport":1438,"me":1439,"-p":1440,"action":1441,"ĠEx":1442,"Ġyears":1443,"Ġcomb":1444,"hor":1445,"anced":1446,"ty":1447,"Ġlove":1448,"Ġgreen":1449,"Ġpopular":1450,"Ġless":1451,"Ġdra":1452,"Ġcontrol":1453,"Ġaff":1454,"Ġconsum":1455,"Ġgame":1456,"ental":1457,"ights":1458,"arget":1459,"omes":1460,"ox":1461,"icult":1462,"erc":1463,"Ġgoals":1464,"ancial":1465,"tle":1466,"Ġgovern":1467,"Ġnumbers":1468,"Ġfive":1469,"Ġstand":1470,"Ġsearch":1471,"Ġefficient":1472,"Ġwal":1473,"Ġname":1474,"ath":1475,"Ġheart":1476,"Ġduring":1477,"rect":1478,"Ġoverall":1479,"ython":1480,"Ġallows":1481,"Ġcity":1482,"ave":1483,"vant":1484,"aterial":1485,"Ġwide":1486,"Ġmus":1487,"ificial":1488,"Ġhard":1489,"ĠTh":1490,"oose":1491,"Ġglobal":1492,"aj":1493,"Ġter":1494,"Ġdifficult":1495,"Ġline":1496,"ĠAl":1497,"care":1498,"ived":1499,"Ġregular":1500,"Ġgr":1501,"),":1502,"lement":1503,"Ġhim":1504,"Ġunique":1505,"Ġenjoy":1506,"Ġmeaning":1507,"Ġopen":1508,"Ġi":1509,"abor":1510,"Ġarea":1511,"Ġitems":1512,"Ġclean":1513,"ditionally":1514,"oid":1515,"ĠWe":1516,"Ġbeaut":1517,"Ġmeet":1518,"iple":1519,"Ġstatement":1520,"Ġagain":1521,"ysis":1522,"Ġfac":1523,"Ġsources":1524,"Ġbody":1525,"Ġalgorithms":1526,"Ġaudience":1527,"Ġwant":1528,"Ġlog":1529,"Ġmaintain":1530,"Ġactivities":1531,"Ġmove":1532,"Ġcult":1533,"oney":1534,"Ġtarget":1535,"\\nB":1536,"Ġmaterial":1537,"Ġcreating":1538,"Ġstructure":1539,"atform":1540,"ext":1541,"Ġexperien":1542,"Ġvalues":1543,"ead":1544,"ohn":1545,"Ġhealthy":1546,"ross":1547,"Ġinteg":1548,"Ġresearch":1549,"atch":1550,"ooking":1551,"Ġrole":1552,"Ġprovides":1553,"iety":1554,"ists":1555,"Ġfinancial":1556,"ories":1557,"dent":1558,"Ġer":1559,"Ġarticle":1560,"Ġelements":1561,"Ġaddress":1562,"Ġconn":1563,"ĠUse":1564,"mp":1565,"Ġeasy":1566,"Ġneg":1567,"Ġcolor":1568,"Ġcalcul":1569,"Explain":1570,"ĠPl":1571,"pect":1572,"ince":1573,"ale":1574,"Ġrisk":1575,"curity":1576,"ert":1577,"Ġfeed":1578,"Ġevent":1579,"vers":1580,"ples":1581,"Ġlevels":1582,"Ġbi":1583,"Ġstay":1584,"Ġplatform":1585,"Ġbreak":1586,"back":1587,"Ġsat":1588,"\\nOverall":1589,"Ġeducation":1590,"\\nC":1591,"Ġcarbon":1592,"--------":1593,"ape":1594,"Ġprevent":1595,"Ġaddition":1596,"Ġstress":1597,"ral":1598,"ource":1599,"rus":1600,"Ġcome":1601,"Ġrecogn":1602,"ĠUnited":1603,"Ġproper":1604,"Ġpoll":1605,"dentify":1606,"Ġunderstanding":1607,"Ġdecisions":1608,"ict":1609,"Ġdire":1610,"Ġbehavior":1611,"Ġ*":1612,"\\nI":1613,"Ġmess":1614,"Ġanimals":1615,"Ġsl":1616,"Ġwind":1617,"Ġbas":1618,"Ġpain":1619,"Ġleading":1620,"ern":1621,"ger":1622,"Ġpres":1623,"Ġthough":1624,"Ġinteract":1625,"yle":1626,"Ġdoes":1627,"Ġhead":1628,"Ġintelligence":1629,"orts":1630,"Ġbecome":1631,"Ġrun":1632,"aring":1633,"Ġimplement":1634,"Ġaction":1635,"oot":1636,"terns":1637,"Ġprotect":1638,"eric":1639,"Ġflow":1640,"Ġemot":1641,"cessary":1642,"urate":1643,"Ġsuggest":1644,"Ġprogram":1645,"Ġphr":1646,"Ġhealthcare":1647,"ention":1648,"Ġsust":1649,"Ġwhy":1650,"Ġaccurate":1651,"lu":1652,"Ġhig":1653,"Ġreach":1654,"Ġallowing":1655,"Ġtravel":1656,"Ġrequire":1657,"Ġareas":1658,"Ġdeep":1659,"He":1660,"Ġfew":1661,"Ġself":1662,"oun":1663,"Ġ#":1664,"osp":1665,"str":1666,"Ġminut":1667,"Ġdecision":1668,"ĠThere":1669,"ances":1670,"Ġquality":1671,"Ġavail":1672,"Ġspace":1673,"Ġsomething":1674,"Ġweb":1675,"Ġpatterns":1676,"Ġmot":1677,"oring":1678,"isf":1679,"Ġanother":1680,"Ġaccount":1681,"\\nW":1682,"uss":1683,"Ġmaj":1684,"uation":1685,"Ġsustain":1686,"Ġautom":1687,"iques":1688,"issions":1689,"verse":1690,"Ġconcept":1691,"Ġsecurity":1692,"Ġthose":1693,"Ġprofess":1694,"Ġshort":1695,"Ġnight":1696,"ength":1697,"apt":1698,"ex":1699,"ĠAdditionally":1700,"Ġtaking":1701,"Ġtoo":1702,"agn":1703,"Ġsimple":1704,"lusion":1705,"iency":1706,"ash":1707,"ours":1708,"Ġpa":1709,"Ġlit":1710,"ĠSp":1711,"iting":1712,"Ġdon":1713,"Ġlim":1714,"lish":1715,"mat":1716,"aves":1717,"ledge":1718,"ditional":1719,"inc":1720,"Ġevents":1721,"Ġoffer":1722,"thing":1723,"Ġworking":1724,"Ġanalysis":1725,"Ġachieve":1726,"Ġpie":1727,"Ġbook":1728,"Ġfre":1729,"Ġmuch":1730,"oon":1731,"Ġtry":1732,"esp":1733,"Ġwaste":1734,"face":1735,"Ġear":1736,"Ġfru":1737,"Ġtransportation":1738,"chool":1739,"Ġtechniques":1740,"Ġprogramm":1741,"ĠEarth":1742,"Ġpredict":1743,"Ġnever":1744,"ws":1745,"ument":1746,"imately":1747,"ared":1748,"Ġparticular":1749,"Ġtowards":1750,"Ġeconomic":1751,"Ġincreasing":1752,"Ġfast":1753,"iment":1754,"Ġnetwork":1755,"Ġcorrect":1756,"Ġmight":1757,"Ġoc":1758,"Ġbecause":1759,"ĠWh":1760,"az":1761,"play":1762,"Ġresults":1763,"Ġmanagement":1764,"Ġpurch":1765,"Ġsound":1766,"Ġpast":1767,"Ġtraining":1768,"____":1769,"ope":1770,"Ġengage":1771,"ourage":1772,"Ġsense":1773,"Ġfree":1774,"Ġpref":1775,"ees":1776,"Ġcountries":1777,"ney":1778,"anies":1779,"Ġafter":1780,"Ġmind":1781,"Ġexc":1782,"ĠOnce":1783,"ĠĠĠĠĠĠĠĠĠĠĠ":1784,"Ġcomplete":1785,"Ġimm":1786,"Ġest":1787,"Ġgenerate":1788,"verb":1789,"ĠDe":1790,"'m":1791,"Ġtools":1792,"redients":1793,"Ġmajor":1794,"ently":1795,"Ġcontribut":1796,"leep":1797,"Ġpoints":1798,"ditions":1799,"Ġfactors":1800,"Ġel":1801,"Ġnext":1802,"ium":1803,"oud":1804,"Ġcru":1805,"Ġreas":1806,"riate":1807,"ĠInd":1808,"Ġpromot":1809,"Ġhistory":1810,"Ġjour":1811,"Ġdue":1812,"Con":1813,"Ġveget":1814,"ency":1815,"ĠAmeric":1816,"Ġfra":1817,"Ġdifference":1818,"oard":1819,"lex":1820,"Ġequation":1821,"irtual":1822,"Ġcup":1823,"Ġforest":1824,"Ġnegative":1825,"Ġsecon":1826,"ones":1827,"Ġnature":1828,"Ġuses":1829,"ah":1830,"por":1831,"Ġsec":1832,"ording":1833,"Ġlast":1834,"ĠSome":1835,"Ġissues":1836,"Ġscient":1837,"Ġprint":1838,"ĠStates":1839,"over":1840,"Ġsatisf":1841,"Ġdevices":1842,"Ġdise":1843,"Ġtemperature":1844,"Ġfeedback":1845,"Ġnecessary":1846,"Ġemissions":1847,"mb":1848,"Ġlow":1849,"for":1850,"tal":1851,"Ġchallenges":1852,"Ġarray":1853,"Ġside":1854,"Ġengine":1855,"Ġboo":1856,"ata":1857,"Ġbelie":1858,"-m":1859,"Ġmultiple":1860,"Ġsing":1861,"Ġgovernment":1862,"ames":1863,"ified":1864,"Ġminutes":1865,"Ġsuccessful":1866,"Ġmoney":1867,"Ġquickly":1868,"Ġbir":1869,"Ġtypically":1870,"Ġpost":1871,"Ġprep":1872,"Ġknowledge":1873,"pped":1874,"actions":1875,"Ġmethods":1876,"Ġoptim":1877,"\\nP":1878,"Ġoutput":1879,"Ġfield":1880,"Ġtable":1881,"Ġbal":1882,"Ġcoll":1883,"Ġcharacters":1884,"volution":1885,"ords":1886,"ilar":1887,"ification":1888,"ane":1889,"Ġcell":1890,"Ġmil":1891,"ĠWhat":1892,"Ġsqu":1893,"Ġlives":1894,"ĠAr":1895,"Ġphrase":1896,"Ġnut":1897,"Ġdigital":1898,"Ġinternet":1899,"lass":1900,"ura":1901,"ommend":1902,"Ġtreat":1903,"Ġapprop":1904,"resh":1905,"urther":1906,"ĠOne":1907,"Ġvisual":1908,"ategor":1909,"Ġapproach":1910,"Ġcertain":1911,"Ġsho":1912,"val":1913,"Ġtask":1914,"ires":1915,"Ġappropriate":1916,"Ġvie":1917,"Ġdesigned":1918,"pose":1919,"**:":1920,"fort":1921,"Ġ|\\":1922,"Ġapplications":1923,"Ġpay":1924,"Ġnow":1925,"Ġheat":1926,"Ġindustry":1927,"pre":1928,"Ġeffectively":1929,"Ġpopulation":1930,"Ġopportunities":1931,"</":1932,"ĠTo":1933,"Ġupd":1934,"Ġincludes":1935,"ĠEng":1936,"Ġtypes":1937,"Ġupon":1938,"Ġconsider":1939,"let":1940,"Ġgen":1941,"ograph":1942,"place":1943,"Ġtimes":1944,"Ġarg":1945,"Comp":1946,"ĠGo":1947,"Ġrece":1948,"Ġchildren":1949,"Ġtrack":1950,"Ġsomeone":1951,"word":1952,"Ġyoung":1953,"Ġconditions":1954,"Ġtraditional":1955,"Ġmodels":1956,"Identify":1957,"Ġcamp":1958,"Ġmakes":1959,"istic":1960,"Ġarr":1961,"Ġcard":1962,"utions":1963,"lt":1964,"Ġold":1965,"Ġideas":1966,"Ġey":1967,"Ġtree":1968,"Ġissue":1969,"Ġharm":1970,"Ġavailable":1971,"Ġcr":1972,"Ġpowerful":1973,"nov":1974,"Ġmovie":1975,"Ġweather":1976,"Ġsky":1977,"Ġquestions":1978,"eet":1979,"Ġactivity":1980,"Ġbrand":1981,"ished":1982,"Ġanalyze":1983,"ĠSh":1984,"Ġenh":1985,"avor":1986,"Ġbeg":1987,"Ġschool":1988,"iate":1989,"Ġeasier":1990,"Ġinflu":1991,"Ġnon":1992,"Ġstudy":1993,"Ġlook":1994,"Ġsolution":1995,"Ġleg":1996,"Ġconst":1997,"How":1998,"Ġcompet":1999}
